#include <stdint.h>

const uint8_t model[] = {0x1c,0x00,0x00,0x00,0x54,0x46,0x4c,0x33,0x14,0x00,0x20,0x00,0x1c,0x00,0x18,0x00,0x14,0x00,0x10,0x00,0x0c,0x00,0x00,0x00,0x08,0x00,0x04,0x00,0x14,0x00,0x00,0x00,0x1c,0x00,0x00,0x00,0x8c,0x00,0x00,0x00,0xe4,0x00,0x00,0x00,0xcc,0x12,0x00,0x00,0xdc,0x12,0x00,0x00,0xf0,0x1d,0x00,0x00,0x03,0x00,0x00,0x00,0x01,0x00,0x00,0x00,0x04,0x00,0x00,0x00,0x66,0xeb,0xff,0xff,0x0c,0x00,0x00,0x00,0x1c,0x00,0x00,0x00,0x3c,0x00,0x00,0x00,0x0f,0x00,0x00,0x00,0x73,0x65,0x72,0x76,0x69,0x6e,0x67,0x5f,0x64,0x65,0x66,0x61,0x75,0x6c,0x74,0x00,0x01,0x00,0x00,0x00,0x04,0x00,0x00,0x00,0x90,0xff,0xff,0xff,0x15,0x00,0x00,0x00,0x04,0x00,0x00,0x00,0x08,0x00,0x00,0x00,0x6f,0x75,0x74,0x70,0x75,0x74,0x5f,0x30,0x00,0x00,0x00,0x00,0x01,0x00,0x00,0x00,0x04,0x00,0x00,0x00,0xc2,0xed,0xff,0xff,0x04,0x00,0x00,0x00,0x0d,0x00,0x00,0x00,0x69,0x6e,0x70,0x75,0x74,0x5f,0x6c,0x61,0x79,0x65,0x72,0x5f,0x32,0x00,0x00,0x00,0x02,0x00,0x00,0x00,0x34,0x00,0x00,0x00,0x04,0x00,0x00,0x00,0xdc,0xff,0xff,0xff,0x18,0x00,0x00,0x00,0x04,0x00,0x00,0x00,0x13,0x00,0x00,0x00,0x43,0x4f,0x4e,0x56,0x45,0x52,0x53,0x49,0x4f,0x4e,0x5f,0x4d,0x45,0x54,0x41,0x44,0x41,0x54,0x41,0x00,0x08,0x00,0x0c,0x00,0x08,0x00,0x04,0x00,0x08,0x00,0x00,0x00,0x17,0x00,0x00,0x00,0x04,0x00,0x00,0x00,0x13,0x00,0x00,0x00,0x6d,0x69,0x6e,0x5f,0x72,0x75,0x6e,0x74,0x69,0x6d,0x65,0x5f,0x76,0x65,0x72,0x73,0x69,0x6f,0x6e,0x00,0x19,0x00,0x00,0x00,0xe4,0x11,0x00,0x00,0xdc,0x11,0x00,0x00,0xc0,0x11,0x00,0x00,0x88,0x10,0x00,0x00,0x68,0x10,0x00,0x00,0x48,0x10,0x00,0x00,0x78,0x01,0x00,0x00,0x58,0x01,0x00,0x00,0x44,0x01,0x00,0x00,0x24,0x01,0x00,0x00,0x10,0x01,0x00,0x00,0xf8,0x00,0x00,0x00,0xe4,0x00,0x00,0x00,0xdc,0x00,0x00,0x00,0xd4,0x00,0x00,0x00,0xcc,0x00,0x00,0x00,0xc4,0x00,0x00,0x00,0xbc,0x00,0x00,0x00,0xb4,0x00,0x00,0x00,0xac,0x00,0x00,0x00,0xa4,0x00,0x00,0x00,0x9c,0x00,0x00,0x00,0x94,0x00,0x00,0x00,0x74,0x00,0x00,0x00,0x04,0x00,0x00,0x00,0xa2,0xee,0xff,0xff,0x04,0x00,0x00,0x00,0x60,0x00,0x00,0x00,0x10,0x00,0x00,0x00,0x00,0x00,0x00,0x00,0x08,0x00,0x0e,0x00,0x08,0x00,0x04,0x00,0x08,0x00,0x00,0x00,0x10,0x00,0x00,0x00,0x24,0x00,0x00,0x00,0x00,0x00,0x06,0x00,0x08,0x00,0x04,0x00,0x06,0x00,0x00,0x00,0x04,0x00,0x00,0x00,0x00,0x00,0x00,0x00,0x0c,0x00,0x18,0x00,0x14,0x00,0x10,0x00,0x0c,0x00,0x04,0x00,0x0c,0x00,0x00,0x00,0x81,0xe7,0xb2,0x39,0x6b,0xd3,0x22,0x02,0x02,0x00,0x00,0x00,0x02,0x00,0x00,0x00,0x04,0x00,0x00,0x00,0x06,0x00,0x00,0x00,0x32,0x2e,0x31,0x37,0x2e,0x31,0x00,0x00,0x0e,0xef,0xff,0xff,0x04,0x00,0x00,0x00,0x10,0x00,0x00,0x00,0x31,0x2e,0x31,0x34,0x2e,0x30,0x00,0x00,0x00,0x00,0x00,0x00,0x00,0x00,0x00,0x00,0x94,0xe3,0xff,0xff,0x98,0xe3,0xff,0xff,0x9c,0xe3,0xff,0xff,0xa0,0xe3,0xff,0xff,0xa4,0xe3,0xff,0xff,0xa8,0xe3,0xff,0xff,0xac,0xe3,0xff,0xff,0xb0,0xe3,0xff,0xff,0xb4,0xe3,0xff,0xff,0xb8,0xe3,0xff,0xff,0x52,0xef,0xff,0xff,0x04,0x00,0x00,0x00,0x04,0x00,0x00,0x00,0xfd,0xff,0xff,0xff,0x62,0xef,0xff,0xff,0x04,0x00,0x00,0x00,0x08,0x00,0x00,0x00,0xff,0xff,0xff,0xff,0xec,0x00,0x00,0x00,0x76,0xef,0xff,0xff,0x04,0x00,0x00,0x00,0x04,0x00,0x00,0x00,0x01,0x00,0x00,0x00,0x86,0xef,0xff,0xff,0x04,0x00,0x00,0x00,0x10,0x00,0x00,0x00,0x69,0x64,0x22,0x3d,0xb0,0x15,0x0d,0x3d,0x27,0xd5,0xd4,0x3c,0x89,0xbb,0x0b,0xbc,0xa2,0xef,0xff,0xff,0x04,0x00,0x00,0x00,0x04,0x00,0x00,0x00,0x2a,0xfc,0x06,0x3d,0xb2,0xef,0xff,0xff,0x04,0x00,0x00,0x00,0x10,0x00,0x00,0x00,0x24,0x21,0x05,0x3e,0x71,0x98,0xa1,0x3d,0xca,0x67,0xb4,0x3d,0xf9,0x93,0xfc,0x3b,0xce,0xef,0xff,0xff,0x04,0x00,0x00,0x00,0xc0,0x0e,0x00,0x00,0xe2,0x2f,0x3c,0xbe,0x9f,0xd9,0x06,0xbd,0x28,0x6b,0x9d,0x3c,0x9a,0x0b,0xff,0xbc,0xb6,0x1b,0x6b,0xbc,0xf7,0x13,0x15,0xbe,0x10,0xa2,0x3c,0x3d,0xdc,0x9d,0x9e,0xbd,0x92,0x4d,0xb9,0x3a,0x30,0x6e,0x02,0x3e,0x42,0xbf,0xc6,0x3d,0x2b,0xe0,0xd2,0x3d,0x62,0x5a,0x88,0xbd,0x42,0xfb,0xf5,0x3d,0xda,0xa5,0xeb,0x3c,0xef,0x82,0x2f,0x3e,0xdf,0x7f,0xe1,0xbc,0x4c,0x34,0xb7,0xbd,0x1d,0x73,0x41,0x3c,0x25,0x75,0x5e,0x3d,0x74,0x31,0xef,0x3d,0x7f,0x1b,0xce,0xbc,0x19,0x95,0x23,0x3d,0x0a,0x1f,0x32,0xbd,0x0c,0x20,0xfb,0x3d,0x5b,0x70,0x1f,0xbd,0x52,0xe6,0x90,0xbd,0xf5,0x91,0x05,0x3e,0xc6,0x96,0x11,0xbd,0x76,0xf8,0x62,0x3d,0x13,0x90,0x04,0x3e,0x7d,0xd6,0x02,0x3b,0xad,0x90,0x29,0xbd,0xfe,0x7c,0x96,0x3d,0xb2,0x6f,0xcd,0x39,0x34,0xf7,0x95,0xbd,0xa9,0xbe,0x0e,0x3e,0xbc,0x57,0x4b,0x3e,0xfc,0xd1,0x95,0x3d,0xc0,0xc5,0xd6,0x3d,0x6b,0xa1,0xfa,0x3d,0xc2,0x9a,0x9f,0x3b,0xce,0xd9,0xdb,0xbd,0x6c,0xe1,0x77,0x3d,0xbe,0xb9,0x24,0x3e,0x2a,0x2a,0xe5,0x3d,0xb9,0xe6,0x95,0x3a,0x98,0x7f,0x70,0xbd,0xaa,0xc5,0xc6,0xbd,0x8d,0x3f,0x13,0x3e,0x47,0x73,0xb0,0xbd,0x29,0x64,0x97,0x3c,0x95,0x10,0xcd,0xba,0xdf,0x59,0x9d,0x3c,0x59,0x75,0x28,0xbd,0x62,0xff,0x5e,0x3d,0xd0,0x57,0x25,0x3e,0x6e,0xfc,0x21,0x3b,0xbe,0x97,0xe7,0xbc,0xb5,0x1b,0xce,0x3d,0x5f,0xcc,0xbd,0x3a,0x07,0x8e,0xf3,0x3d,0x85,0xb8,0x87,0xbc,0x86,0xd7,0x3e,0x3d,0xd8,0x5b,0xbe,0xbd,0x97,0x73,0x18,0x3e,0xe7,0xcf,0xe3,0x3d,0x75,0x48,0xe0,0x37,0x15,0x36,0xb3,0xbd,0xf5,0x5c,0xfd,0xbc,0x54,0xdf,0xcf,0xbd,0xc6,0x68,0x1d,0x3e,0x89,0xb7,0x13,0x3e,0x02,0x2e,0x1d,0x3e,0x5b,0x72,0xa5,0x3d,0xb4,0x4c,0xc9,0x3c,0x93,0x88,0x0a,0x3e,0xd5,0x6a,0xc1,0x3d,0x7e,0x8a,0x06,0xbd,0xe6,0x0c,0x4b,0x3d,0x22,0xa7,0x42,0x3c,0x2a,0x82,0xda,0x3c,0x7e,0xb4,0xe2,0x3d,0x4f,0x98,0x04,0xbb,0x86,0xe2,0x94,0x3d,0xf6,0x66,0xa6,0x3d,0xa2,0xae,0x74,0xbd,0xa3,0x66,0x95,0x3d,0x13,0xfc,0xc3,0x3d,0x4c,0x85,0x11,0x3d,0xef,0x71,0x88,0x3c,0x21,0x78,0x24,0x3e,0x66,0xdc,0x42,0x3d,0x95,0x8b,0x0e,0xbd,0xf1,0xc2,0x3a,0x3d,0x15,0x6f,0x1c,0x3e,0x54,0xa8,0x05,0x3e,0x43,0x97,0x52,0x3d,0x07,0x81,0xf6,0x3d,0xe6,0xc1,0x71,0x3c,0x30,0x85,0x0a,0xbd,0x3f,0xd8,0x89,0xbd,0x85,0xe1,0x19,0x3e,0x51,0x20,0xbd,0x3d,0x47,0xdd,0x55,0x3d,0x99,0x3b,0xa9,0x3b,0x84,0x93,0x2c,0x3d,0xf1,0x12,0x4e,0xbd,0x16,0x6f,0x58,0x3a,0x1b,0x73,0xb0,0xbc,0x40,0xa7,0x23,0x3e,0xb7,0xcb,0x2f,0x3e,0x84,0x7a,0x5b,0x3d,0xb2,0xc3,0x34,0xbd,0x2a,0xe7,0xbc,0x3c,0xe8,0x46,0x86,0x3d,0xd5,0x86,0xab,0x3d,0x5e,0x3a,0xeb,0x3c,0x12,0x99,0x2f,0xbc,0xd5,0x4f,0xc6,0x3d,0x6e,0xcd,0x08,0xbd,0x63,0x6d,0xa4,0x3d,0x33,0x51,0x06,0x3e,0xfd,0x91,0xf3,0xbc,0x83,0xac,0x57,0x3d,0xe9,0x92,0x64,0x3d,0xbc,0x60,0xb8,0x3d,0x18,0x7a,0x36,0x3b,0xd0,0x13,0xdd,0x3d,0xff,0xea,0x8f,0xbd,0x7e,0x8a,0xd6,0x3d,0xe2,0x79,0xa4,0xbd,0xf5,0x4c,0xc8,0x3b,0x00,0x86,0xf0,0xbc,0x83,0xc3,0x44,0x3c,0xe4,0x2c,0xa6,0xbd,0xb0,0xa7,0xf8,0x3d,0xe3,0x57,0xd7,0x3b,0x4c,0xac,0xf4,0x3d,0x05,0xef,0x8a,0xbd,0xe1,0x4b,0xd7,0xbd,0x8d,0x4a,0xd3,0xbc,0x16,0xf8,0x5f,0xbd,0xeb,0xde,0x3b,0xbd,0x3c,0x93,0x88,0x3d,0x56,0x92,0x01,0xbd,0xc1,0x93,0x69,0x3d,0xba,0x4b,0x96,0xbd,0x16,0x87,0x06,0xbe,0x50,0xb8,0xc8,0xbd,0x90,0xe3,0x86,0xbd,0x05,0xfe,0x76,0xbd,0xb4,0xb1,0xd0,0xbc,0x2a,0xca,0xbf,0xbd,0x21,0xd5,0xfc,0x3d,0x13,0x85,0x9f,0x3c,0xde,0xe6,0x84,0xbb,0x7a,0xe8,0x7c,0xbd,0x04,0x6b,0x8b,0x3d,0x12,0xf2,0xa8,0x3d,0x3c,0x37,0x4c,0x3d,0xa3,0x6f,0xd3,0x3c,0xf6,0xea,0x9f,0xbd,0x4e,0xde,0x9f,0xbc,0x22,0xfb,0x42,0xbc,0x43,0x69,0x1c,0xbd,0x67,0x8a,0x03,0xbe,0xde,0x67,0x9b,0x3d,0x5b,0xf2,0x30,0xbd,0x51,0x80,0x94,0x3d,0x45,0x7f,0x9e,0x3d,0x86,0xc3,0x09,0xbe,0xa6,0x68,0x45,0xbc,0xca,0xaa,0x04,0xbd,0x07,0x8e,0x89,0x3d,0x95,0x87,0x18,0x3c,0x78,0x64,0xe9,0xbc,0x72,0x52,0x67,0xbc,0x24,0x63,0x7f,0xbd,0x3a,0xda,0x09,0x3d,0xa3,0xb0,0x8c,0xbd,0xa0,0x5d,0xbd,0x3d,0xbd,0x0d,0x1e,0xbd,0x6b,0xef,0x25,0xbd,0x3f,0xe1,0x00,0xbe,0x95,0x00,0x23,0xbe,0xdf,0x42,0x07,0x3e,0x04,0x87,0xb9,0x3d,0x6e,0x8b,0x09,0xbe,0x18,0x3d,0xd8,0xbc,0xf3,0xf6,0x51,0x3e,0xac,0xbd,0xd8,0x3c,0xdb,0x7a,0x30,0xbc,0x49,0x43,0x9b,0xbc,0xbc,0x3b,0x2a,0x3e,0xa7,0xd8,0x1e,0x3d,0x0d,0x0e,0x30,0xbd,0x21,0x8f,0x1f,0xbb,0xe3,0xc4,0x94,0x3d,0xe3,0xde,0x7a,0xbd,0x86,0xac,0x15,0xbe,0xf4,0xd1,0xb4,0x3d,0xfc,0x84,0x86,0x3d,0x54,0x00,0xa4,0xbd,0x20,0x10,0x1b,0xbe,0x3f,0xc5,0x9d,0xbc,0x21,0x67,0xa3,0xbd,0x53,0xf7,0x13,0x3e,0x35,0x32,0xd1,0xbd,0x63,0x57,0xac,0xbd,0x10,0x4b,0xc2,0x3d,0xcd,0x5b,0xb3,0x3c,0x0e,0x7c,0x62,0x3c,0x20,0x74,0x27,0xbe,0x24,0x3a,0xb5,0x3d,0x53,0xf0,0xf4,0x3d,0xb3,0x02,0x54,0x3d,0xfe,0x77,0x3f,0x3d,0x4b,0x02,0x52,0x3d,0xe7,0x3b,0x91,0x3c,0xf1,0xce,0xbd,0xbd,0x8a,0x82,0x89,0xbd,0x69,0x3f,0x90,0x3d,0xac,0xad,0x83,0x3b,0x1d,0x7e,0x7e,0x3b,0x04,0x9b,0x30,0x3d,0xae,0xe4,0x5a,0xbd,0x14,0x2e,0xa0,0x3d,0xfe,0xab,0x55,0x3d,0x87,0x4b,0xc7,0x3b,0xcb,0x55,0x89,0x3d,0x03,0xc5,0x4e,0x3c,0x6b,0x1c,0xcc,0xbd,0xc8,0xa5,0x1f,0x3d,0x08,0x1a,0x89,0xbd,0xb8,0x3b,0x5b,0x3c,0x47,0x06,0xa4,0xbd,0x59,0xcd,0x01,0xbe,0x93,0x3d,0x9f,0x3d,0xae,0x7c,0x90,0x3c,0xd9,0x53,0x2f,0xbe,0x38,0x5f,0xa8,0xbd,0xde,0x1f,0x89,0xbd,0xb4,0x08,0xf1,0x3c,0x20,0xeb,0xba,0xbd,0xe2,0x69,0xb9,0xbb,0x12,0x49,0xb4,0x3d,0x8d,0x32,0x90,0x3d,0x98,0x95,0x16,0xbe,0x3b,0xaa,0x87,0xbd,0xd6,0x19,0x15,0x3e,0x2e,0x0e,0xa5,0x3d,0xec,0x58,0x6e,0xbd,0x42,0xf4,0xd7,0xbd,0x94,0x56,0x7c,0xbc,0xf7,0x98,0x9a,0x3c,0xd4,0x6c,0x2d,0x3c,0x00,0xe7,0x4d,0xbd,0xe8,0x70,0xc4,0x3c,0x0a,0x95,0x4a,0xbc,0x36,0x6b,0xa8,0x3c,0xd2,0xe8,0x4b,0x3d,0xf5,0x91,0x55,0xbd,0x16,0xf9,0xd9,0x3d,0xe9,0x82,0x12,0x3e,0x55,0x7c,0xda,0x3d,0x2b,0xa7,0x2c,0x3e,0xc7,0x9e,0x1e,0x3e,0xb9,0xe4,0xf7,0xbd,0x42,0x30,0xac,0xbc,0x22,0xe9,0xa9,0xbd,0xab,0x35,0x32,0xbd,0x78,0x7e,0xdb,0x3d,0x87,0xb3,0x51,0x3d,0x0d,0xc6,0x3c,0xbd,0xe3,0x39,0x35,0x3e,0x84,0xad,0xd6,0x3c,0xdf,0xa4,0x04,0x3d,0x75,0xaf,0xb3,0x3d,0xa1,0xa4,0x56,0x3e,0x80,0xd4,0xc9,0xbd,0x9d,0xec,0xaa,0x3c,0xea,0x57,0xc0,0x3c,0x66,0x43,0x9a,0x3d,0x4c,0xdd,0x3d,0xbc,0x2d,0xb1,0xf1,0xbd,0xbf,0xe3,0xe1,0xbd,0x50,0x67,0x19,0x3e,0x25,0x3b,0x1d,0x3e,0x58,0xf1,0xea,0xbd,0x80,0xe1,0xcb,0x3d,0x7a,0xcd,0xb5,0xbd,0x38,0x61,0xe0,0x3d,0x55,0xa2,0xd4,0x3c,0x8b,0xff,0xb8,0xbd,0x29,0xc8,0xec,0x3c,0x41,0x36,0x3b,0xbd,0xab,0x32,0x47,0x3d,0x91,0x0f,0x04,0xbb,0x2d,0x16,0xfd,0x3d,0x90,0x12,0x02,0x3d,0x5b,0x71,0x62,0x3d,0x7c,0x9d,0x86,0x3c,0x36,0xfe,0xb9,0x3d,0xca,0x6c,0x16,0x3e,0x24,0x60,0x96,0x3d,0x22,0x4b,0xe4,0x3d,0x5c,0x57,0x10,0x3d,0xc0,0x42,0x27,0xbc,0xe3,0x78,0x84,0xbc,0xad,0x1a,0x04,0x3e,0x9c,0xa2,0x1a,0x3e,0x8a,0xde,0x91,0x3d,0xfd,0x0c,0x08,0xbe,0xc7,0xfb,0x0b,0xbd,0x19,0x98,0x6f,0x38,0x9d,0xce,0x6f,0xbd,0x8d,0x64,0x51,0xbd,0xa9,0x02,0x12,0xbd,0x5b,0xd8,0x47,0xbd,0xcd,0x13,0x12,0x3d,0xfa,0xd7,0x63,0xbd,0x6a,0x4c,0xa9,0x3a,0xec,0xe7,0x16,0x3e,0xe5,0x0a,0x13,0x3e,0x59,0xfc,0xb5,0xbd,0xf6,0xae,0xd3,0xbd,0x72,0xb1,0x8f,0x3d,0xa3,0xb8,0x58,0x3b,0xcc,0x0e,0xd5,0xbd,0xf2,0xeb,0xe1,0xbc,0x7e,0x7e,0x77,0x3d,0x55,0xcd,0x01,0x3e,0xbb,0x18,0xba,0xbc,0xb7,0x39,0x1d,0xbd,0x31,0xe0,0x52,0x3d,0x38,0x76,0xe8,0x3d,0x48,0x7a,0x00,0x3d,0xd0,0xe3,0x1c,0x3e,0x2b,0x48,0x23,0x3e,0x87,0xf3,0x16,0x3d,0x4c,0x72,0x54,0x3d,0x41,0x0e,0x39,0x3e,0x8d,0x4d,0xaf,0x3d,0x6a,0x1d,0x2e,0xbc,0xe4,0x05,0x62,0x3d,0xa7,0xff,0x49,0xbb,0x57,0x5a,0xaf,0x3c,0x8c,0x5b,0x94,0xbd,0x48,0x2f,0x9f,0x3d,0x85,0xf5,0xf2,0x3d,0x42,0x35,0x41,0x3d,0x24,0x8e,0xc9,0xbd,0x5c,0x51,0x76,0x3d,0x7e,0x31,0xcf,0x3d,0xec,0x24,0xca,0x3d,0x95,0xca,0x2e,0x3d,0x83,0xdd,0xa8,0xbd,0x45,0xc5,0xc3,0x3c,0x3f,0x3b,0x95,0x3d,0x22,0xb9,0xc7,0x3b,0x1c,0xcb,0xbf,0xbd,0x32,0x34,0xe7,0x3b,0xa1,0x76,0xb3,0x3d,0x38,0x46,0xdd,0x3d,0x02,0x6a,0xcd,0xbd,0xa9,0x03,0xd4,0xbd,0x80,0x1b,0xa9,0xbd,0xd7,0x01,0x92,0xbc,0x92,0xd5,0x38,0xbc,0x38,0x59,0x79,0x3d,0x2d,0x31,0xb7,0x3c,0x9e,0x7a,0xc7,0x3d,0x35,0xc7,0x97,0xbd,0x45,0xf2,0x55,0xbd,0x71,0x18,0xae,0xbd,0x5e,0x78,0xe1,0xbc,0x89,0xb2,0x52,0xbd,0x47,0x65,0x91,0x3d,0xa1,0x28,0x02,0x3d,0x1e,0x32,0xef,0xbd,0xc2,0x2e,0xa6,0x3d,0xb7,0x84,0x0b,0x3e,0xb0,0x00,0x19,0x3d,0x4a,0x64,0x95,0x3c,0x36,0xd5,0xbe,0xba,0x69,0x64,0xf5,0x3d,0xb4,0x7c,0xc3,0x3d,0x6d,0xac,0x47,0xbc,0x68,0x4a,0x95,0xbd,0xd0,0xe2,0x89,0x3d,0xff,0x57,0xd2,0x3d,0x1b,0x4e,0xc2,0xbd,0xc6,0xbc,0x26,0xbe,0x3c,0xae,0x96,0xbd,0x8d,0x09,0x85,0xbd,0xbb,0x53,0x06,0x3e,0x78,0x35,0x0a,0xbc,0x8b,0xab,0x8e,0xbd,0x6d,0x30,0xd4,0xbc,0x3b,0x73,0x9a,0x3d,0x85,0x26,0x09,0x3d,0xc6,0x1f,0x9f,0x3d,0xbf,0x54,0x26,0xbe,0x7c,0xce,0x00,0xbb,0xa1,0x69,0x32,0xbe,0x20,0xc6,0x58,0x3c,0x78,0xa9,0xa1,0xbd,0xc8,0xbd,0x69,0xbd,0x7b,0x99,0xe0,0xbd,0xe9,0xc5,0x23,0x3d,0x99,0x1f,0x36,0xbd,0x32,0xd6,0x01,0x3e,0xaf,0x71,0x1a,0x3d,0x0b,0x48,0x88,0xbd,0x7c,0xc8,0x0c,0xbd,0x78,0x9a,0x80,0xbd,0x85,0x32,0x0e,0x3d,0x1c,0x7b,0x02,0xbd,0x78,0xa3,0x22,0xbe,0x5a,0x14,0xad,0x3d,0x02,0xcd,0x00,0xbe,0xff,0x0d,0xa7,0x3d,0xe6,0x86,0x7a,0x3d,0x3f,0xb6,0xf1,0xbd,0x55,0xeb,0xc2,0xbd,0xec,0x32,0x11,0x3e,0x7f,0xfc,0xeb,0x3d,0xab,0x71,0x5b,0x3d,0xbb,0x4f,0x04,0xbe,0x72,0x33,0x62,0x3e,0xce,0x95,0xe7,0xbd,0x0d,0xf3,0xc1,0x3c,0x79,0xee,0x34,0xbe,0x45,0x9b,0xb2,0x3d,0xc7,0xae,0x8e,0xbd,0x8e,0xe1,0x00,0xbc,0xbb,0x22,0xbb,0xbd,0x7e,0x11,0x15,0xbb,0x19,0x6a,0x3d,0x3c,0x08,0xd2,0xec,0xbd,0xe7,0xb6,0x1e,0xbd,0x70,0x46,0x1b,0x3d,0x4e,0x48,0xd2,0x3d,0xc9,0x19,0x60,0x3d,0xb4,0x42,0x91,0x3d,0x60,0xb5,0x59,0x3d,0xf2,0xc9,0x24,0xbd,0x1e,0x41,0x56,0x3c,0xfa,0x39,0x27,0xbd,0x3e,0xa2,0xb2,0x3c,0xc6,0x90,0xc8,0xbb,0xb7,0xbd,0xa7,0xbd,0xb1,0x61,0x71,0x3c,0xe5,0x6d,0xcb,0x3d,0x3c,0x7c,0x92,0x3c,0x1c,0x54,0x68,0xbc,0x3a,0xd2,0xa6,0x3d,0x67,0x8e,0x8d,0x3c,0x66,0x53,0x8d,0xbd,0x70,0xf2,0xdb,0x3d,0xe2,0x08,0xaf,0x3d,0x0d,0xaa,0xe4,0xbb,0xed,0x9e,0x1d,0x3d,0xf0,0x31,0xc6,0x3d,0xe3,0x38,0xdb,0xbd,0xa7,0xcb,0x9c,0x3d,0x8b,0x8f,0xee,0xbc,0xc5,0x32,0xa4,0x3c,0xbe,0xbd,0xc9,0xbd,0x38,0xcd,0x43,0x3d,0x6c,0x22,0xad,0xbc,0x56,0xec,0x60,0xbd,0x75,0xf0,0x3d,0x3e,0xdb,0x71,0x51,0xbd,0xf7,0xbe,0xba,0xbd,0x66,0x88,0x04,0x3e,0x07,0x06,0x60,0xbd,0x53,0xd4,0x83,0x3c,0x31,0x9a,0x61,0xbd,0xf9,0xce,0x16,0x3d,0x76,0x81,0x0d,0x3e,0x56,0xfd,0x5f,0xbd,0x1e,0x1d,0xf8,0x3d,0x6a,0xec,0xb9,0x3d,0xf6,0x46,0xc7,0xbc,0x2a,0x03,0x76,0x3d,0x93,0x2e,0x06,0xbd,0xab,0x25,0xfb,0x3b,0x61,0x66,0xd2,0x3c,0x40,0x26,0xc0,0x3d,0x7f,0x38,0x60,0xbd,0x70,0x37,0x0c,0xbd,0x79,0x1c,0x1e,0x3e,0xb0,0x31,0x4e,0x3d,0xca,0xf7,0x13,0x3d,0x36,0xdf,0xd0,0xbb,0xd5,0x58,0xcd,0xbd,0xce,0xeb,0xd6,0x3d,0x36,0x17,0x24,0xbd,0x64,0x89,0xdf,0xbd,0x97,0x4e,0xe9,0x3d,0x81,0x36,0x8a,0x3d,0xac,0xb6,0x1b,0xbd,0x9f,0xbb,0xfc,0x3d,0xa8,0x3a,0x0c,0x3e,0x96,0x6c,0xfa,0xbc,0x4c,0x5b,0xdb,0x3c,0xec,0x41,0xd7,0x3c,0x25,0x76,0x87,0xbc,0x47,0x46,0xe0,0x3d,0x37,0x5b,0x25,0x3d,0x9d,0xe2,0x9a,0x3d,0x7f,0x5a,0x2b,0x3d,0xbe,0x72,0x7c,0x3c,0x06,0x22,0x13,0xbe,0x8e,0xa3,0xb2,0x3d,0xdb,0xcd,0xa7,0x3d,0x51,0x42,0x90,0xbc,0xcc,0x94,0x5f,0xbd,0x91,0x89,0x84,0x3d,0xd1,0x5b,0x86,0xbc,0x28,0x15,0xee,0xbc,0x11,0x76,0x9f,0x3d,0x94,0x1c,0xa7,0xbd,0x71,0xb3,0xd2,0x3d,0x75,0x4a,0x9d,0x3d,0x4b,0x54,0x8f,0xbd,0x1f,0x3b,0xd5,0xbc,0xa6,0xe1,0x12,0x3d,0xc0,0x8b,0xa7,0xbc,0x85,0xef,0x7d,0xbc,0x0e,0x9a,0x0b,0xbe,0xd1,0x6a,0xbe,0x3d,0x58,0x8d,0x92,0xbd,0xa0,0xe5,0x1c,0x3b,0x9c,0xda,0xb0,0x3d,0xa9,0x25,0xec,0xbd,0x74,0x98,0x0f,0xbe,0xad,0x1c,0x4e,0xbd,0x9b,0x11,0x38,0xbc,0xa3,0xf7,0xd1,0x3d,0xf8,0x64,0x52,0xbd,0xf0,0x19,0x96,0x3d,0xe3,0xe4,0xf6,0x3c,0x74,0x15,0x36,0x3d,0xa8,0xc8,0xae,0xbc,0xb8,0xfd,0xce,0xbc,0x56,0x42,0xc5,0xbd,0x6a,0xc0,0xdf,0x3a,0x90,0x04,0x8a,0xbd,0x69,0xa5,0xb1,0xbb,0x35,0x21,0x3d,0x3d,0x47,0x78,0xa4,0xbd,0x0b,0x29,0xc0,0xbd,0x81,0xde,0x92,0xbc,0x71,0x6c,0xe1,0x3b,0x26,0xd9,0x04,0xbd,0x2a,0x94,0xc1,0xbd,0x92,0xb0,0xfd,0x3b,0x9e,0x60,0x92,0x3d,0x02,0x73,0xa4,0xbd,0xb9,0x97,0x08,0x3e,0xd1,0xa5,0xce,0xbd,0x94,0xc3,0xb3,0x3c,0x01,0x5c,0x6f,0xbd,0x5a,0x9f,0xf3,0x3d,0x2c,0x5b,0xae,0xbd,0x49,0x9d,0xe7,0x3d,0xee,0x1d,0x5e,0xbc,0x95,0xbb,0x88,0xbd,0x87,0x45,0x25,0xbe,0x4e,0xcd,0x3c,0xbd,0x35,0x74,0x3e,0xbd,0x73,0x98,0xcc,0x3d,0x84,0x36,0xeb,0xbd,0x3e,0x60,0x90,0xbc,0xc8,0x9f,0x10,0x3d,0xe0,0x44,0xec,0x3d,0x30,0x44,0x02,0xbe,0x71,0x2b,0x02,0xbe,0x2d,0x97,0x22,0x3d,0xd1,0x3a,0xb7,0xbc,0xf4,0x0f,0x84,0xbd,0x57,0x82,0x8f,0x3d,0x39,0xc7,0xf4,0x3d,0x0b,0x4c,0xb7,0xbd,0xc2,0x41,0xa7,0xbc,0x78,0x6c,0xc7,0x3c,0x32,0xa0,0x0f,0x3e,0x2f,0xc7,0x87,0xbd,0x94,0x9c,0x96,0x3d,0xdc,0x3b,0xb9,0xbd,0x6e,0x56,0xfe,0x3b,0x9f,0x02,0x1c,0x3e,0xa0,0x0d,0x85,0x3d,0x40,0x8f,0x73,0xba,0xb3,0x7a,0xde,0xbb,0x91,0x96,0xe4,0xbb,0xcd,0xc3,0xb0,0x3d,0xd7,0x43,0x00,0x3e,0x09,0x3c,0xc4,0xbd,0xfb,0x57,0x0d,0x3e,0x68,0x70,0xf9,0x3d,0xdb,0xaa,0x1c,0x3d,0x3f,0x81,0xff,0x3c,0x89,0xbe,0x3b,0xbd,0x95,0x53,0xc0,0x3d,0x6c,0x39,0xb3,0x3d,0x9c,0xa9,0x26,0x3e,0x51,0x08,0xcf,0x3b,0x32,0xe5,0x7a,0x3d,0xbb,0xc2,0x20,0x3d,0x0f,0x40,0x10,0x3e,0x85,0xf4,0x2f,0x3c,0xce,0xa2,0x8a,0xbd,0x75,0x3c,0x28,0x3d,0xdc,0xa4,0x7d,0x3d,0x80,0x4a,0x92,0xbc,0x27,0x55,0x16,0x3e,0x7b,0x2a,0x9f,0xbd,0xf3,0x4d,0x48,0x3d,0xbd,0x13,0x11,0xbd,0x50,0x05,0x2e,0x3d,0x06,0xf7,0x3c,0x3e,0x3e,0xbc,0xb2,0x3b,0xd7,0x97,0x6f,0x3c,0xe9,0xe1,0xa2,0xbd,0x91,0x3e,0x86,0x3d,0x5e,0xe8,0xb5,0xbb,0xc1,0xbd,0xaf,0xbd,0x22,0x70,0xbc,0xbd,0xc6,0x12,0x33,0xbd,0x81,0xd6,0x50,0x3e,0x17,0xae,0x94,0x3d,0xaa,0x66,0x09,0x3e,0x3d,0x74,0x35,0xbd,0x24,0x76,0x05,0x3d,0x05,0x1b,0x03,0xbd,0xd5,0x2e,0xc8,0x3d,0x9f,0x59,0x08,0x3d,0x4b,0x35,0x65,0x3d,0x45,0xaa,0x0f,0xbe,0x1a,0x60,0x65,0xbd,0x10,0x7c,0x1f,0x3e,0x28,0xa2,0x32,0x3d,0x67,0x6f,0x21,0x3d,0xee,0x0e,0xdc,0x3d,0xa9,0x8c,0x89,0xbd,0x6c,0x0d,0x6b,0xbd,0x0d,0xf8,0xf7,0xbc,0xa3,0x56,0x1b,0x3e,0x58,0xc2,0x01,0x3e,0xb1,0xdf,0xe9,0x3d,0x18,0x7a,0x19,0xbd,0xe3,0x88,0x2c,0x3e,0x7c,0x73,0x8c,0xbd,0xd3,0x26,0x4e,0x3e,0x6f,0x64,0xdd,0x3c,0x9d,0x8d,0xd2,0xbc,0x01,0x72,0x4f,0x3e,0xf7,0xfe,0xe9,0x3d,0xd7,0xe8,0xf6,0xbd,0x59,0x20,0x2f,0x3e,0x46,0x47,0xe6,0x3d,0x27,0x2b,0x75,0x3c,0x94,0xd4,0xb2,0x3c,0x42,0x69,0x50,0xbd,0x81,0xee,0xbe,0x3d,0x62,0xb4,0x26,0x3e,0x85,0x27,0x13,0xbe,0xee,0x04,0x1b,0x3e,0xa0,0xcc,0x0f,0x3e,0x40,0xf1,0x22,0x3e,0xcc,0xab,0x02,0xbe,0x5d,0x9c,0x54,0x3d,0x58,0xeb,0xb7,0x3d,0xb7,0x3b,0x20,0x3e,0x73,0x62,0xb1,0x3d,0xd0,0x7a,0xec,0xbd,0xf5,0xc3,0xa2,0x3d,0xd7,0xdd,0x77,0xbc,0x9e,0xfb,0x71,0xbd,0x85,0xd2,0x28,0xbe,0x06,0x54,0x77,0x3c,0x6b,0xdc,0x21,0x3e,0x9a,0x1b,0x58,0x3d,0x93,0xae,0x06,0xbd,0xd2,0x1e,0x02,0xbd,0xb5,0x15,0x17,0x3e,0x0a,0x16,0xca,0xbd,0x6e,0x1e,0xe9,0x3c,0xa6,0xfd,0x16,0x3e,0xa1,0x49,0x10,0x3c,0xde,0x46,0xcc,0x3c,0xb2,0xce,0x4d,0x3d,0x83,0x55,0x6f,0x3d,0x44,0x95,0xc0,0x3d,0x19,0x19,0xf2,0xbc,0x54,0xec,0xaf,0xbd,0xaf,0x3f,0x86,0xbc,0x36,0x82,0x04,0x3e,0xb6,0x2c,0xe8,0x3d,0x46,0x92,0x0c,0xbe,0x2e,0x40,0x1c,0xbd,0x0c,0x71,0x2b,0x3e,0x51,0x48,0xcc,0x3d,0xe9,0xc1,0xa5,0x3d,0x55,0x70,0x87,0xbd,0x34,0x6f,0x11,0x3e,0x02,0xaa,0x69,0x3d,0x15,0x57,0x8e,0x3d,0x9e,0x90,0x9a,0x3d,0xcf,0x8d,0x1f,0xbd,0x2a,0x47,0x52,0x3d,0x1c,0xed,0x3d,0x3d,0x84,0xfc,0xb3,0xbd,0x5d,0x91,0x45,0xbd,0x9c,0x13,0x9d,0x3d,0x93,0x03,0x9b,0xbc,0xa0,0x4b,0x9b,0x3c,0xae,0x4f,0x80,0x3d,0x8f,0x5a,0x0a,0x3d,0x65,0xc5,0x36,0xbd,0x59,0x64,0xd8,0xbd,0x10,0x51,0x52,0xbd,0x82,0xef,0x22,0x3d,0xbf,0x81,0xc9,0x3d,0x14,0x38,0xf3,0xbd,0x41,0x97,0x9d,0x3d,0x14,0x07,0x9a,0xbd,0x11,0x7e,0xb0,0x3d,0x76,0x12,0x7e,0xbd,0xb4,0x1e,0xe3,0xbd,0xc2,0x2f,0x23,0xbe,0x37,0x43,0xb2,0x3c,0xf7,0x45,0xaa,0xbd,0xb5,0x58,0x4d,0x3d,0xa7,0x08,0xf4,0xbc,0xe7,0xff,0x8c,0xbd,0x7b,0x12,0xb8,0xbd,0xce,0x35,0x7f,0xbd,0x18,0xf8,0x55,0x3d,0x34,0x92,0x18,0xbd,0xd8,0x37,0x0c,0x3d,0x5f,0xc8,0x0a,0xbb,0x55,0xa5,0xcd,0x3d,0xad,0xb9,0xd8,0xbd,0x30,0xe1,0x14,0xbd,0xf0,0xd3,0xb7,0xbd,0x55,0xbe,0x26,0x3d,0x33,0xdf,0x9f,0xbd,0x45,0xfa,0x17,0xbd,0xdf,0xb7,0x61,0xbd,0xc0,0xa3,0xc4,0xbd,0x33,0x79,0xfa,0x3c,0xb8,0x12,0xd3,0xbc,0xfb,0xf8,0x7a,0xbc,0xd5,0x96,0xcf,0xbd,0x6a,0x95,0x03,0x3e,0xcd,0xc0,0xd6,0xbd,0x1e,0x93,0x4e,0x3d,0xe9,0x4f,0xee,0xbd,0x03,0xb4,0xa7,0x3d,0xf3,0xbf,0x07,0xbd,0x9a,0x9d,0xc8,0xbd,0x70,0x4b,0xf7,0xbd,0x54,0x99,0x6a,0x3c,0x82,0x75,0x1c,0x3d,0x5c,0xd6,0x0d,0xbd,0xce,0x3d,0xc6,0xbd,0x8e,0x41,0xa5,0x3c,0x02,0xf5,0x8a,0x3c,0x47,0x83,0x71,0xbd,0x11,0xf9,0x8b,0xbd,0x16,0xcc,0x89,0xbc,0x14,0x45,0x3f,0x3d,0xd8,0x20,0x7b,0x3d,0xab,0xb6,0xac,0x3c,0x4c,0xb0,0xdb,0x3d,0x70,0x70,0xcc,0x3d,0xa6,0x0d,0xe9,0x3c,0xf3,0x37,0x91,0x3d,0x18,0x98,0xe2,0xbd,0x70,0x5f,0xf7,0xbd,0xcd,0x54,0x86,0xbd,0x4d,0x1f,0x96,0x3d,0xd5,0x86,0xb1,0x3d,0xc2,0xf0,0x11,0xbd,0xdc,0x2b,0x96,0x3c,0xd5,0xaa,0x9d,0x3d,0x7c,0xe2,0xfe,0xbb,0x95,0x11,0x09,0xbd,0xd9,0x36,0x99,0x3d,0x22,0x86,0x9f,0xbd,0x3b,0x26,0x84,0xbd,0xdb,0x14,0x5c,0x3d,0x5c,0xd7,0x08,0xbb,0xb8,0xa8,0x99,0xbd,0x8c,0x06,0xed,0x3b,0x3f,0xec,0x07,0xbc,0xdf,0x8e,0x86,0xbd,0x79,0x65,0xfe,0x3c,0xcf,0xcf,0xa6,0x3c,0x32,0x8c,0xaa,0x3d,0xc8,0x0e,0x09,0xbd,0x21,0x46,0xca,0x3d,0xfa,0xef,0x8d,0x3c,0x8e,0xa7,0x3a,0xbd,0xa6,0xcf,0xaa,0xbd,0xc7,0x74,0x9a,0x3b,0x12,0xb0,0xd1,0xbd,0xdb,0x38,0xcf,0x3d,0xec,0x5f,0xfc,0x3c,0xe5,0x53,0x57,0xbc,0x87,0xe6,0xd1,0x3d,0x02,0x48,0x97,0xbd,0x16,0x30,0x6c,0xbd,0xab,0x2f,0xde,0x3d,0xfe,0x33,0xe6,0x3c,0xfe,0xae,0xdb,0xbd,0xdd,0x77,0x86,0xbd,0x0d,0xd4,0x78,0x3d,0x46,0xed,0xc0,0x3c,0xd3,0x3d,0x96,0x3d,0xa8,0x89,0x35,0xbc,0x28,0x2e,0xb1,0xbd,0x99,0x64,0xb1,0x3d,0xdc,0xf0,0xba,0xbc,0xc3,0x47,0xe2,0x3d,0x67,0x53,0xd2,0xbd,0x52,0x59,0x85,0xbd,0x3b,0x18,0x43,0x3d,0xc2,0x3b,0x7e,0xbd,0x2f,0x47,0xae,0xbd,0x29,0xa0,0x38,0x3d,0x96,0xb4,0x50,0x3c,0xe7,0x3c,0x3e,0x3d,0x55,0x6f,0x95,0x3d,0x82,0x60,0x51,0x3d,0xa7,0xb6,0xd3,0x3d,0xf0,0x03,0xb7,0xbb,0x27,0x10,0x87,0x3d,0xc9,0x53,0xf2,0xbc,0x6f,0x1d,0x69,0x3d,0x51,0x45,0xec,0x3d,0xa8,0x27,0x8b,0x3d,0xcd,0xc0,0x0e,0x3d,0x70,0xbd,0x71,0xbd,0xad,0x89,0x1e,0x3d,0xec,0xd8,0xbb,0xbd,0xfd,0x70,0xda,0x3d,0xec,0xe6,0x7a,0xbd,0x43,0xcc,0xa3,0xbd,0x53,0x4f,0xc7,0xbd,0xf4,0x2b,0x2a,0xbc,0xaa,0x2b,0x8c,0x3c,0x8b,0xd0,0xe6,0xbc,0xbd,0x29,0xb0,0xbd,0x41,0x90,0xa7,0x3d,0x99,0x3a,0x97,0x3b,0xab,0x31,0x28,0x3d,0x6e,0x05,0x99,0xbd,0x95,0x5b,0xcc,0x3d,0x60,0x36,0x46,0xbd,0x8d,0xc3,0xe7,0x3b,0x42,0xa0,0xd3,0x3d,0x0a,0x83,0x47,0x3d,0x9c,0x86,0xda,0xbc,0x1e,0x94,0x3f,0x3c,0xcc,0x50,0xb6,0xbd,0x1b,0x94,0x8e,0xbd,0x0b,0xdb,0xfe,0xbd,0x00,0xf2,0x85,0xbd,0xd3,0x8b,0x65,0x3c,0x0a,0xca,0x49,0xbc,0xd8,0xd3,0x12,0xbe,0xcc,0x5c,0x09,0x3e,0x4a,0x9d,0xed,0x3c,0x81,0x26,0x5e,0x3d,0xd1,0x91,0xab,0x3d,0xc7,0x39,0xaf,0x3d,0xe3,0xb4,0x77,0xbc,0xf4,0xd8,0x0e,0x3e,0xac,0xc8,0x63,0x3c,0x8c,0xfc,0x0e,0x3e,0xe8,0x17,0xf2,0xbd,0x0b,0x8b,0x0a,0x3d,0xf1,0x4e,0x1f,0x3c,0x42,0xdc,0x75,0xbc,0xf9,0x77,0x03,0x3d,0x94,0xfc,0x56,0x3b,0x15,0xad,0xac,0xbd,0x1b,0x12,0x08,0xbd,0xd2,0xdd,0x18,0xbd,0x0e,0x37,0x66,0xbc,0x17,0x96,0x9f,0x3d,0x69,0x8d,0x70,0xbd,0x53,0x91,0xba,0xbd,0x3b,0x2c,0xa6,0x3d,0x1a,0x2c,0x9c,0xbd,0x1a,0x5a,0xd5,0x3d,0xf9,0x2c,0xdf,0xbd,0x2f,0x8f,0xf5,0xbc,0xd8,0x09,0x08,0x3a,0x28,0x15,0x0c,0xbd,0xc6,0x9e,0xa3,0x3d,0x01,0x10,0xf0,0x3d,0x95,0x02,0x07,0x3d,0x39,0x67,0xa9,0xbd,0xc6,0xfd,0x10,0x3e,0x9a,0xd2,0x23,0xbc,0x1d,0xe1,0xfc,0xbb,0x7a,0xfa,0x9a,0x3d,0xe0,0x7f,0x29,0xbd,0x5a,0xa2,0xec,0x3d,0xfb,0xbb,0x2e,0xbb,0xcb,0x7f,0xd5,0x3d,0xc6,0x2e,0x28,0x3e,0x05,0xdd,0x66,0xbd,0x82,0xb5,0x2f,0x3e,0xea,0x44,0xf9,0xbc,0x70,0xa7,0xcc,0xbd,0x84,0xdf,0x12,0x3e,0x67,0xda,0x3d,0x3e,0x45,0x1a,0x26,0x3d,0xae,0x2f,0x6d,0x3d,0xf8,0x2b,0xbc,0x3d,0x9d,0x45,0x2b,0xbd,0x57,0xce,0x9d,0xbd,0x22,0x03,0x79,0x3d,0x0e,0x28,0xb9,0x3d,0x71,0xa1,0x38,0xbc,0x2c,0x74,0x25,0x3b,0x75,0x48,0xa3,0x3d,0xb7,0x5e,0xbd,0xbd,0x81,0x96,0x00,0x3e,0xe4,0xf8,0x41,0xbd,0xe6,0xf4,0xa9,0xbb,0xb6,0x9a,0x36,0xbc,0x6a,0x71,0xb9,0xbd,0xc1,0x7d,0xb8,0x3d,0x53,0x75,0xd2,0x3c,0x6c,0xcd,0xdf,0x3d,0x9a,0xfe,0xff,0xff,0x04,0x00,0x00,0x00,0x10,0x00,0x00,0x00,0x43,0x59,0x39,0xbf,0x38,0x6b,0x8c,0xbf,0x75,0x9f,0x8b,0x3f,0x87,0x86,0x6a,0x3f,0xb6,0xfe,0xff,0xff,0x04,0x00,0x00,0x00,0x10,0x00,0x00,0x00,0x00,0x00,0x00,0x00,0x00,0x00,0x00,0x00,0x00,0x00,0x00,0x00,0x00,0x00,0x00,0x00,0xd2,0xfe,0xff,0xff,0x04,0x00,0x00,0x00,0x20,0x01,0x00,0x00,0x5d,0x6a,0x21,0xbe,0x1d,0x96,0x00,0x3f,0x8f,0x4b,0x5e,0xbd,0xe4,0x83,0x29,0xbd,0xef,0x69,0x8d,0xbe,0xab,0xbc,0xa6,0x3c,0xd8,0x79,0x94,0x3d,0xf9,0xa4,0xec,0x3e,0x7e,0x46,0xc1,0xbd,0x28,0x14,0x66,0xbe,0x62,0x6b,0x03,0x3f,0x51,0x0e,0x05,0x3e,0x83,0x39,0xee,0xbe,0xb6,0x44,0xea,0x3e,0xfa,0x9a,0xdf,0x3e,0x08,0x7d,0xd1,0xbe,0xaf,0x7a,0x58,0xbe,0x6e,0x28,0x84,0x3e,0x15,0x34,0xe0,0x3e,0xa5,0x09,0xd9,0xbe,0x49,0xde,0xfe,0x3e,0x40,0x8f,0xe3,0xbe,0xf4,0xfb,0xa8,0xbd,0x46,0x55,0x03,0x3d,0x7d,0x13,0xa6,0xbe,0x2f,0xd5,0x67,0x3e,0x23,0xb7,0x34,0xbe,0xe5,0x81,0x20,0x3e,0x47,0xd9,0x5f,0xbe,0xf6,0x9b,0x4d,0x3e,0x8a,0x7d,0xb9,0xbe,0xc3,0x33,0xc0,0xbe,0x97,0x38,0x3f,0x3e,0xcc,0x26,0x8e,0x3e,0xdb,0xa5,0x3a,0xbc,0x77,0x0e,0x02,0xbf,0x65,0x50,0x2a,0x3d,0xdb,0xbb,0xa9,0xbe,0xe9,0x60,0x90,0xbe,0x42,0x43,0x87,0xbe,0xb5,0xad,0x7a,0xbe,0x23,0xf5,0x64,0x3e,0x96,0x1d,0xbe,0x3b,0xf9,0x15,0xb6,0x3d,0xe3,0x42,0xcc,0xbe,0xa1,0x98,0x86,0xbe,0xc7,0x35,0x5b,0xbe,0x79,0xfa,0xf9,0xbd,0x2f,0xaa,0x8f,0x3e,0xdb,0x00,0xa0,0x3e,0xdf,0xa3,0x2a,0xbe,0x5b,0xc6,0xbf,0xbc,0xc8,0x42,0x60,0xbc,0x82,0x30,0xf3,0x3e,0x56,0xdf,0x84,0xbd,0x61,0xbe,0xba,0x3e,0x80,0xe9,0x03,0x3e,0xd6,0x45,0x26,0x3e,0xdf,0xf6,0xbb,0xbc,0x82,0xc9,0x02,0xbf,0x47,0xe6,0xd9,0x3d,0x7f,0x91,0xd5,0xbe,0xf8,0x38,0x06,0xbe,0x56,0x1d,0xde,0x3e,0xb7,0x1b,0xbc,0xbe,0xf5,0x9d,0xbd,0xbe,0x9d,0xd2,0xf3,0x3e,0x83,0xef,0x9b,0xbe,0x09,0x32,0xf3,0xbe,0xb5,0x24,0xbd,0x3e,0x1a,0xc8,0x84,0x3e,0x33,0x18,0xc0,0x3d,0x00,0x00,0x06,0x00,0x08,0x00,0x04,0x00,0x06,0x00,0x00,0x00,0x04,0x00,0x00,0x00,0x0c,0x00,0x00,0x00,0xff,0xff,0xff,0xff,0x76,0x00,0x00,0x00,0x04,0x00,0x00,0x00,0x88,0xf4,0xff,0xff,0x8c,0xf4,0xff,0xff,0x0f,0x00,0x00,0x00,0x4d,0x4c,0x49,0x52,0x20,0x43,0x6f,0x6e,0x76,0x65,0x72,0x74,0x65,0x64,0x2e,0x00,0x01,0x00,0x00,0x00,0x14,0x00,0x00,0x00,0x00,0x00,0x0e,0x00,0x18,0x00,0x14,0x00,0x10,0x00,0x0c,0x00,0x08,0x00,0x04,0x00,0x0e,0x00,0x00,0x00,0x14,0x00,0x00,0x00,0x1c,0x00,0x00,0x00,0x74,0x02,0x00,0x00,0x78,0x02,0x00,0x00,0x7c,0x02,0x00,0x00,0x04,0x00,0x00,0x00,0x6d,0x61,0x69,0x6e,0x00,0x00,0x00,0x00,0x0a,0x00,0x00,0x00,0x2c,0x02,0x00,0x00,0xcc,0x01,0x00,0x00,0x94,0x01,0x00,0x00,0x48,0x01,0x00,0x00,0x18,0x01,0x00,0x00,0xc4,0x00,0x00,0x00,0x9c,0x00,0x00,0x00,0x60,0x00,0x00,0x00,0x28,0x00,0x00,0x00,0x04,0x00,0x00,0x00,0x96,0xfe,0xff,0xff,0x0c,0x00,0x00,0x00,0x10,0x00,0x00,0x00,0x06,0x00,0x00,0x00,0x01,0x00,0x00,0x00,0x15,0x00,0x00,0x00,0x01,0x00,0x00,0x00,0x14,0x00,0x00,0x00,0x86,0xfe,0xff,0xff,0x14,0x00,0x00,0x00,0x00,0x00,0x00,0x08,0x10,0x00,0x00,0x00,0x14,0x00,0x00,0x00,0x05,0x00,0x00,0x00,0x44,0xf5,0xff,0xff,0x01,0x00,0x00,0x00,0x14,0x00,0x00,0x00,0x03,0x00,0x00,0x00,0x13,0x00,0x00,0x00,0x04,0x00,0x00,0x00,0x07,0x00,0x00,0x00,0xba,0xfe,0xff,0xff,0x14,0x00,0x00,0x00,0x00,0x00,0x00,0x08,0x14,0x00,0x00,0x00,0x18,0x00,0x00,0x00,0x05,0x00,0x00,0x00,0x26,0xff,0xff,0xff,0x00,0x00,0x00,0x01,0x01,0x00,0x00,0x00,0x13,0x00,0x00,0x00,0x03,0x00,0x00,0x00,0x12,0x00,0x00,0x00,0x05,0x00,0x00,0x00,0x08,0x00,0x00,0x00,0x22,0xff,0xff,0xff,0x0c,0x00,0x00,0x00,0x10,0x00,0x00,0x00,0x02,0x00,0x00,0x00,0x01,0x00,0x00,0x00,0x12,0x00,0x00,0x00,0x02,0x00,0x00,0x00,0x11,0x00,0x00,0x00,0x0a,0x00,0x00,0x00,0x16,0xff,0xff,0xff,0x24,0x00,0x00,0x00,0x00,0x00,0x00,0x05,0x34,0x00,0x00,0x00,0x38,0x00,0x00,0x00,0x04,0x00,0x00,0x00,0x00,0x00,0x0e,0x00,0x18,0x00,0x17,0x00,0x10,0x00,0x0c,0x00,0x08,0x00,0x04,0x00,0x0e,0x00,0x00,0x00,0x01,0x00,0x00,0x00,0x02,0x00,0x00,0x00,0x01,0x00,0x00,0x00,0x02,0x00,0x00,0x00,0x00,0x00,0x00,0x01,0x01,0x00,0x00,0x00,0x11,0x00,0x00,0x00,0x01,0x00,0x00,0x00,0x10,0x00,0x00,0x00,0x0a,0xff,0xff,0xff,0x10,0x00,0x00,0x00,0x00,0x00,0x00,0x34,0x0c,0x00,0x00,0x00,0x10,0x00,0x00,0x00,0x20,0xf6,0xff,0xff,0x01,0x00,0x00,0x00,0x10,0x00,0x00,0x00,0x02,0x00,0x00,0x00,0x0f,0x00,0x00,0x00,0x09,0x00,0x00,0x00,0x92,0xff,0xff,0xff,0x1c,0x00,0x00,0x00,0x00,0x00,0x00,0x0b,0x1c,0x00,0x00,0x00,0x20,0x00,0x00,0x00,0x03,0x00,0x00,0x00,0x00,0x00,0x06,0x00,0x08,0x00,0x07,0x00,0x06,0x00,0x00,0x00,0x00,0x00,0x00,0x01,0x01,0x00,0x00,0x00,0x0f,0x00,0x00,0x00,0x02,0x00,0x00,0x00,0x0e,0x00,0x00,0x00,0x06,0x00,0x00,0x00,0x00,0x00,0x0a,0x00,0x10,0x00,0x0c,0x00,0x08,0x00,0x04,0x00,0x0a,0x00,0x00,0x00,0x0c,0x00,0x00,0x00,0x10,0x00,0x00,0x00,0x02,0x00,0x00,0x00,0x01,0x00,0x00,0x00,0x0e,0x00,0x00,0x00,0x02,0x00,0x00,0x00,0x0d,0x00,0x00,0x00,0x01,0x00,0x00,0x00,0x00,0x00,0x0e,0x00,0x1a,0x00,0x14,0x00,0x10,0x00,0x0c,0x00,0x0b,0x00,0x04,0x00,0x0e,0x00,0x00,0x00,0x20,0x00,0x00,0x00,0x00,0x00,0x00,0x01,0x28,0x00,0x00,0x00,0x2c,0x00,0x00,0x00,0x01,0x00,0x00,0x00,0x00,0x00,0x0a,0x00,0x10,0x00,0x0f,0x00,0x08,0x00,0x04,0x00,0x0a,0x00,0x00,0x00,0x01,0x00,0x00,0x00,0x01,0x00,0x00,0x00,0x00,0x00,0x00,0x01,0x01,0x00,0x00,0x00,0x0d,0x00,0x00,0x00,0x03,0x00,0x00,0x00,0x0c,0x00,0x00,0x00,0x02,0x00,0x00,0x00,0x03,0x00,0x00,0x00,0x00,0x00,0x0e,0x00,0x14,0x00,0x00,0x00,0x10,0x00,0x0c,0x00,0x0b,0x00,0x04,0x00,0x0e,0x00,0x00,0x00,0x10,0x00,0x00,0x00,0x00,0x00,0x00,0x34,0x0c,0x00,0x00,0x00,0x10,0x00,0x00,0x00,0x24,0xf7,0xff,0xff,0x01,0x00,0x00,0x00,0x0c,0x00,0x00,0x00,0x02,0x00,0x00,0x00,0x00,0x00,0x00,0x00,0x0b,0x00,0x00,0x00,0x01,0x00,0x00,0x00,0x15,0x00,0x00,0x00,0x01,0x00,0x00,0x00,0x00,0x00,0x00,0x00,0x16,0x00,0x00,0x00,0x08,0x08,0x00,0x00,0xb0,0x07,0x00,0x00,0x50,0x07,0x00,0x00,0xfc,0x06,0x00,0x00,0xbc,0x06,0x00,0x00,0x7c,0x06,0x00,0x00,0x38,0x06,0x00,0x00,0xfc,0x05,0x00,0x00,0xc0,0x05,0x00,0x00,0x84,0x05,0x00,0x00,0x44,0x05,0x00,0x00,0xe0,0x04,0x00,0x00,0x5c,0x04,0x00,0x00,0xe4,0x03,0x00,0x00,0x6c,0x03,0x00,0x00,0xe4,0x02,0x00,0x00,0x5c,0x02,0x00,0x00,0xe0,0x01,0x00,0x00,0x7c,0x01,0x00,0x00,0xe0,0x00,0x00,0x00,0x60,0x00,0x00,0x00,0x04,0x00,0x00,0x00,0x66,0xf8,0xff,0xff,0x00,0x00,0x00,0x01,0x14,0x00,0x00,0x00,0x1c,0x00,0x00,0x00,0x1c,0x00,0x00,0x00,0x16,0x00,0x00,0x00,0x34,0x00,0x00,0x00,0x02,0x00,0x00,0x00,0xff,0xff,0xff,0xff,0x01,0x00,0x00,0x00,0xd0,0xf7,0xff,0xff,0x1b,0x00,0x00,0x00,0x53,0x74,0x61,0x74,0x65,0x66,0x75,0x6c,0x50,0x61,0x72,0x74,0x69,0x74,0x69,0x6f,0x6e,0x65,0x64,0x43,0x61,0x6c,0x6c,0x5f,0x31,0x3a,0x30,0x00,0x02,0x00,0x00,0x00,0x01,0x00,0x00,0x00,0x01,0x00,0x00,0x00,0xbe,0xf8,0xff,0xff,0x00,0x00,0x00,0x01,0x14,0x00,0x00,0x00,0x1c,0x00,0x00,0x00,0x1c,0x00,0x00,0x00,0x15,0x00,0x00,0x00,0x58,0x00,0x00,0x00,0x02,0x00,0x00,0x00,0xff,0xff,0xff,0xff,0x01,0x00,0x00,0x00,0x28,0xf8,0xff,0xff,0x3c,0x00,0x00,0x00,0x73,0x65,0x71,0x75,0x65,0x6e,0x74,0x69,0x61,0x6c,0x5f,0x32,0x5f,0x31,0x2f,0x64,0x65,0x6e,0x73,0x65,0x5f,0x35,0x5f,0x31,0x2f,0x4d,0x61,0x74,0x4d,0x75,0x6c,0x3b,0x73,0x65,0x71,0x75,0x65,0x6e,0x74,0x69,0x61,0x6c,0x5f,0x32,0x5f,0x31,0x2f,0x64,0x65,0x6e,0x73,0x65,0x5f,0x35,0x5f,0x31,0x2f,0x41,0x64,0x64,0x00,0x00,0x00,0x00,0x02,0x00,0x00,0x00,0x01,0x00,0x00,0x00,0x01,0x00,0x00,0x00,0x3a,0xf9,0xff,0xff,0x00,0x00,0x00,0x01,0x14,0x00,0x00,0x00,0x1c,0x00,0x00,0x00,0x1c,0x00,0x00,0x00,0x14,0x00,0x00,0x00,0x74,0x00,0x00,0x00,0x02,0x00,0x00,0x00,0xff,0xff,0xff,0xff,0x04,0x00,0x00,0x00,0xa4,0xf8,0xff,0xff,0x5a,0x00,0x00,0x00,0x73,0x65,0x71,0x75,0x65,0x6e,0x74,0x69,0x61,0x6c,0x5f,0x32,0x5f,0x31,0x2f,0x64,0x65,0x6e,0x73,0x65,0x5f,0x34,0x5f,0x31,0x2f,0x4d,0x61,0x74,0x4d,0x75,0x6c,0x3b,0x73,0x65,0x71,0x75,0x65,0x6e,0x74,0x69,0x61,0x6c,0x5f,0x32,0x5f,0x31,0x2f,0x64,0x65,0x6e,0x73,0x65,0x5f,0x34,0x5f,0x31,0x2f,0x52,0x65,0x6c,0x75,0x3b,0x73,0x65,0x71,0x75,0x65,0x6e,0x74,0x69,0x61,0x6c,0x5f,0x32,0x5f,0x31,0x2f,0x64,0x65,0x6e,0x73,0x65,0x5f,0x34,0x5f,0x31,0x2f,0x41,0x64,0x64,0x00,0x00,0x02,0x00,0x00,0x00,0x01,0x00,0x00,0x00,0x04,0x00,0x00,0x00,0xd2,0xf9,0xff,0xff,0x00,0x00,0x00,0x01,0x14,0x00,0x00,0x00,0x1c,0x00,0x00,0x00,0x1c,0x00,0x00,0x00,0x13,0x00,0x00,0x00,0x3c,0x00,0x00,0x00,0x02,0x00,0x00,0x00,0xff,0xff,0xff,0xff,0xec,0x00,0x00,0x00,0x3c,0xf9,0xff,0xff,0x22,0x00,0x00,0x00,0x73,0x65,0x71,0x75,0x65,0x6e,0x74,0x69,0x61,0x6c,0x5f,0x32,0x5f,0x31,0x2f,0x66,0x6c,0x61,0x74,0x74,0x65,0x6e,0x5f,0x32,0x5f,0x31,0x2f,0x52,0x65,0x73,0x68,0x61,0x70,0x65,0x00,0x00,0x02,0x00,0x00,0x00,0x01,0x00,0x00,0x00,0xec,0x00,0x00,0x00,0x32,0xfa,0xff,0xff,0x00,0x00,0x00,0x01,0x14,0x00,0x00,0x00,0x24,0x00,0x00,0x00,0x24,0x00,0x00,0x00,0x12,0x00,0x00,0x00,0x4c,0x00,0x00,0x00,0x04,0x00,0x00,0x00,0xff,0xff,0xff,0xff,0x01,0x00,0x00,0x00,0x3b,0x00,0x00,0x00,0x04,0x00,0x00,0x00,0xa4,0xf9,0xff,0xff,0x2a,0x00,0x00,0x00,0x73,0x65,0x71,0x75,0x65,0x6e,0x74,0x69,0x61,0x6c,0x5f,0x32,0x5f,0x31,0x2f,0x6d,0x61,0x78,0x5f,0x70,0x6f,0x6f,0x6c,0x69,0x6e,0x67,0x31,0x64,0x5f,0x32,0x5f,0x31,0x2f,0x4d,0x61,0x78,0x50,0x6f,0x6f,0x6c,0x31,0x64,0x00,0x00,0x04,0x00,0x00,0x00,0x01,0x00,0x00,0x00,0x01,0x00,0x00,0x00,0x3b,0x00,0x00,0x00,0x04,0x00,0x00,0x00,0xaa,0xfa,0xff,0xff,0x00,0x00,0x00,0x01,0x14,0x00,0x00,0x00,0x24,0x00,0x00,0x00,0x24,0x00,0x00,0x00,0x11,0x00,0x00,0x00,0x58,0x00,0x00,0x00,0x04,0x00,0x00,0x00,0xff,0xff,0xff,0xff,0x01,0x00,0x00,0x00,0x76,0x00,0x00,0x00,0x04,0x00,0x00,0x00,0x1c,0xfa,0xff,0xff,0x35,0x00,0x00,0x00,0x73,0x65,0x71,0x75,0x65,0x6e,0x74,0x69,0x61,0x6c,0x5f,0x32,0x5f,0x31,0x2f,0x6d,0x61,0x78,0x5f,0x70,0x6f,0x6f,0x6c,0x69,0x6e,0x67,0x31,0x64,0x5f,0x32,0x5f,0x31,0x2f,0x4d,0x61,0x78,0x50,0x6f,0x6f,0x6c,0x31,0x64,0x2f,0x45,0x78,0x70,0x61,0x6e,0x64,0x44,0x69,0x6d,0x73,0x00,0x00,0x00,0x04,0x00,0x00,0x00,0x01,0x00,0x00,0x00,0x01,0x00,0x00,0x00,0x76,0x00,0x00,0x00,0x04,0x00,0x00,0x00,0x2e,0xfb,0xff,0xff,0x00,0x00,0x00,0x01,0x14,0x00,0x00,0x00,0x20,0x00,0x00,0x00,0x20,0x00,0x00,0x00,0x10,0x00,0x00,0x00,0x5c,0x00,0x00,0x00,0x03,0x00,0x00,0x00,0xff,0xff,0xff,0xff,0x76,0x00,0x00,0x00,0x04,0x00,0x00,0x00,0x9c,0xfa,0xff,0xff,0x3c,0x00,0x00,0x00,0x73,0x65,0x71,0x75,0x65,0x6e,0x74,0x69,0x61,0x6c,0x5f,0x32,0x5f,0x31,0x2f,0x63,0x6f,0x6e,0x76,0x31,0x64,0x5f,0x32,0x5f,0x31,0x2f,0x52,0x65,0x6c,0x75,0x3b,0x73,0x65,0x71,0x75,0x65,0x6e,0x74,0x69,0x61,0x6c,0x5f,0x32,0x5f,0x31,0x2f,0x63,0x6f,0x6e,0x76,0x31,0x64,0x5f,0x32,0x5f,0x31,0x2f,0x61,0x64,0x64,0x00,0x00,0x00,0x00,0x03,0x00,0x00,0x00,0x01,0x00,0x00,0x00,0x76,0x00,0x00,0x00,0x04,0x00,0x00,0x00,0xb2,0xfb,0xff,0xff,0x00,0x00,0x00,0x01,0x14,0x00,0x00,0x00,0x20,0x00,0x00,0x00,0x20,0x00,0x00,0x00,0x0f,0x00,0x00,0x00,0x4c,0x00,0x00,0x00,0x03,0x00,0x00,0x00,0xff,0xff,0xff,0xff,0x76,0x00,0x00,0x00,0x04,0x00,0x00,0x00,0x20,0xfb,0xff,0xff,0x2d,0x00,0x00,0x00,0x73,0x65,0x71,0x75,0x65,0x6e,0x74,0x69,0x61,0x6c,0x5f,0x32,0x5f,0x31,0x2f,0x63,0x6f,0x6e,0x76,0x31,0x64,0x5f,0x32,0x5f,0x31,0x2f,0x63,0x6f,0x6e,0x76,0x6f,0x6c,0x75,0x74,0x69,0x6f,0x6e,0x2f,0x53,0x71,0x75,0x65,0x65,0x7a,0x65,0x00,0x00,0x00,0x03,0x00,0x00,0x00,0x01,0x00,0x00,0x00,0x76,0x00,0x00,0x00,0x04,0x00,0x00,0x00,0x26,0xfc,0xff,0xff,0x00,0x00,0x00,0x01,0x14,0x00,0x00,0x00,0x24,0x00,0x00,0x00,0x24,0x00,0x00,0x00,0x0e,0x00,0x00,0x00,0x48,0x00,0x00,0x00,0x04,0x00,0x00,0x00,0xff,0xff,0xff,0xff,0x01,0x00,0x00,0x00,0x76,0x00,0x00,0x00,0x04,0x00,0x00,0x00,0x98,0xfb,0xff,0xff,0x25,0x00,0x00,0x00,0x73,0x65,0x71,0x75,0x65,0x6e,0x74,0x69,0x61,0x6c,0x5f,0x32,0x5f,0x31,0x2f,0x63,0x6f,0x6e,0x76,0x31,0x64,0x5f,0x32,0x5f,0x31,0x2f,0x63,0x6f,0x6e,0x76,0x6f,0x6c,0x75,0x74,0x69,0x6f,0x6e,0x00,0x00,0x00,0x04,0x00,0x00,0x00,0x01,0x00,0x00,0x00,0x01,0x00,0x00,0x00,0x76,0x00,0x00,0x00,0x04,0x00,0x00,0x00,0x9a,0xfc,0xff,0xff,0x00,0x00,0x00,0x01,0x14,0x00,0x00,0x00,0x24,0x00,0x00,0x00,0x24,0x00,0x00,0x00,0x0d,0x00,0x00,0x00,0x54,0x00,0x00,0x00,0x04,0x00,0x00,0x00,0xff,0xff,0xff,0xff,0x01,0x00,0x00,0x00,0x78,0x00,0x00,0x00,0x06,0x00,0x00,0x00,0x0c,0xfc,0xff,0xff,0x30,0x00,0x00,0x00,0x73,0x65,0x71,0x75,0x65,0x6e,0x74,0x69,0x61,0x6c,0x5f,0x32,0x5f,0x31,0x2f,0x63,0x6f,0x6e,0x76,0x31,0x64,0x5f,0x32,0x5f,0x31,0x2f,0x63,0x6f,0x6e,0x76,0x6f,0x6c,0x75,0x74,0x69,0x6f,0x6e,0x2f,0x45,0x78,0x70,0x61,0x6e,0x64,0x44,0x69,0x6d,0x73,0x00,0x00,0x00,0x00,0x04,0x00,0x00,0x00,0x01,0x00,0x00,0x00,0x01,0x00,0x00,0x00,0x78,0x00,0x00,0x00,0x06,0x00,0x00,0x00,0x6e,0xfd,0xff,0xff,0x00,0x00,0x00,0x01,0x14,0x00,0x00,0x00,0x14,0x00,0x00,0x00,0x0c,0x00,0x00,0x00,0x00,0x00,0x00,0x02,0x44,0x00,0x00,0x00,0x78,0xfc,0xff,0xff,0x34,0x00,0x00,0x00,0x73,0x65,0x71,0x75,0x65,0x6e,0x74,0x69,0x61,0x6c,0x5f,0x32,0x5f,0x31,0x2f,0x63,0x6f,0x6e,0x76,0x31,0x64,0x5f,0x32,0x5f,0x31,0x2f,0x63,0x6f,0x6e,0x76,0x6f,0x6c,0x75,0x74,0x69,0x6f,0x6e,0x2f,0x45,0x78,0x70,0x61,0x6e,0x64,0x44,0x69,0x6d,0x73,0x2f,0x64,0x69,0x6d,0x00,0x00,0x00,0x00,0x00,0x00,0x00,0x00,0xce,0xfd,0xff,0xff,0x00,0x00,0x00,0x01,0x14,0x00,0x00,0x00,0x14,0x00,0x00,0x00,0x0b,0x00,0x00,0x00,0x00,0x00,0x00,0x02,0x1c,0x00,0x00,0x00,0xd8,0xfc,0xff,0xff,0x0f,0x00,0x00,0x00,0x61,0x72,0x69,0x74,0x68,0x2e,0x63,0x6f,0x6e,0x73,0x74,0x61,0x6e,0x74,0x39,0x00,0x01,0x00,0x00,0x00,0x02,0x00,0x00,0x00,0x0a,0xfe,0xff,0xff,0x00,0x00,0x00,0x01,0x14,0x00,0x00,0x00,0x14,0x00,0x00,0x00,0x0a,0x00,0x00,0x00,0x00,0x00,0x00,0x02,0x1c,0x00,0x00,0x00,0x14,0xfd,0xff,0xff,0x0f,0x00,0x00,0x00,0x61,0x72,0x69,0x74,0x68,0x2e,0x63,0x6f,0x6e,0x73,0x74,0x61,0x6e,0x74,0x38,0x00,0x00,0x00,0x00,0x00,0x9e,0xfe,0xff,0xff,0x00,0x00,0x00,0x01,0x10,0x00,0x00,0x00,0x10,0x00,0x00,0x00,0x09,0x00,0x00,0x00,0x1c,0x00,0x00,0x00,0x48,0xfd,0xff,0xff,0x0f,0x00,0x00,0x00,0x61,0x72,0x69,0x74,0x68,0x2e,0x63,0x6f,0x6e,0x73,0x74,0x61,0x6e,0x74,0x37,0x00,0x01,0x00,0x00,0x00,0x04,0x00,0x00,0x00,0xd6,0xfe,0xff,0xff,0x00,0x00,0x00,0x01,0x10,0x00,0x00,0x00,0x10,0x00,0x00,0x00,0x08,0x00,0x00,0x00,0x1c,0x00,0x00,0x00,0x80,0xfd,0xff,0xff,0x0f,0x00,0x00,0x00,0x61,0x72,0x69,0x74,0x68,0x2e,0x63,0x6f,0x6e,0x73,0x74,0x61,0x6e,0x74,0x36,0x00,0x01,0x00,0x00,0x00,0x01,0x00,0x00,0x00,0x0e,0xff,0xff,0xff,0x00,0x00,0x00,0x01,0x10,0x00,0x00,0x00,0x10,0x00,0x00,0x00,0x07,0x00,0x00,0x00,0x1c,0x00,0x00,0x00,0xb8,0xfd,0xff,0xff,0x0f,0x00,0x00,0x00,0x61,0x72,0x69,0x74,0x68,0x2e,0x63,0x6f,0x6e,0x73,0x74,0x61,0x6e,0x74,0x35,0x00,0x03,0x00,0x00,0x00,0x01,0x00,0x00,0x00,0x01,0x00,0x00,0x00,0x04,0x00,0x00,0x00,0x4e,0xff,0xff,0xff,0x00,0x00,0x00,0x01,0x10,0x00,0x00,0x00,0x10,0x00,0x00,0x00,0x06,0x00,0x00,0x00,0x1c,0x00,0x00,0x00,0xf8,0xfd,0xff,0xff,0x0f,0x00,0x00,0x00,0x61,0x72,0x69,0x74,0x68,0x2e,0x63,0x6f,0x6e,0x73,0x74,0x61,0x6e,0x74,0x34,0x00,0x02,0x00,0x00,0x00,0x04,0x00,0x00,0x00,0xec,0x00,0x00,0x00,0x8a,0xff,0xff,0xff,0x00,0x00,0x00,0x01,0x10,0x00,0x00,0x00,0x10,0x00,0x00,0x00,0x05,0x00,0x00,0x00,0x1c,0x00,0x00,0x00,0x34,0xfe,0xff,0xff,0x0f,0x00,0x00,0x00,0x61,0x72,0x69,0x74,0x68,0x2e,0x63,0x6f,0x6e,0x73,0x74,0x61,0x6e,0x74,0x33,0x00,0x02,0x00,0x00,0x00,0x01,0x00,0x00,0x00,0x04,0x00,0x00,0x00,0xc6,0xff,0xff,0xff,0x00,0x00,0x00,0x01,0x10,0x00,0x00,0x00,0x10,0x00,0x00,0x00,0x04,0x00,0x00,0x00,0x1c,0x00,0x00,0x00,0x70,0xfe,0xff,0xff,0x0f,0x00,0x00,0x00,0x61,0x72,0x69,0x74,0x68,0x2e,0x63,0x6f,0x6e,0x73,0x74,0x61,0x6e,0x74,0x32,0x00,0x01,0x00,0x00,0x00,0x04,0x00,0x00,0x00,0x00,0x00,0x16,0x00,0x18,0x00,0x14,0x00,0x00,0x00,0x10,0x00,0x0c,0x00,0x08,0x00,0x00,0x00,0x00,0x00,0x00,0x00,0x07,0x00,0x16,0x00,0x00,0x00,0x00,0x00,0x00,0x01,0x10,0x00,0x00,0x00,0x10,0x00,0x00,0x00,0x03,0x00,0x00,0x00,0x1c,0x00,0x00,0x00,0xc0,0xfe,0xff,0xff,0x0f,0x00,0x00,0x00,0x61,0x72,0x69,0x74,0x68,0x2e,0x63,0x6f,0x6e,0x73,0x74,0x61,0x6e,0x74,0x31,0x00,0x04,0x00,0x00,0x00,0x04,0x00,0x00,0x00,0x01,0x00,0x00,0x00,0x03,0x00,0x00,0x00,0x06,0x00,0x00,0x00,0x00,0x00,0x16,0x00,0x1c,0x00,0x18,0x00,0x17,0x00,0x10,0x00,0x0c,0x00,0x08,0x00,0x00,0x00,0x00,0x00,0x00,0x00,0x07,0x00,0x16,0x00,0x00,0x00,0x00,0x00,0x00,0x01,0x14,0x00,0x00,0x00,0x14,0x00,0x00,0x00,0x02,0x00,0x00,0x00,0x00,0x00,0x00,0x02,0x1c,0x00,0x00,0x00,0x20,0xff,0xff,0xff,0x0e,0x00,0x00,0x00,0x61,0x72,0x69,0x74,0x68,0x2e,0x63,0x6f,0x6e,0x73,0x74,0x61,0x6e,0x74,0x00,0x00,0x01,0x00,0x00,0x00,0x03,0x00,0x00,0x00,0x00,0x00,0x16,0x00,0x1c,0x00,0x18,0x00,0x00,0x00,0x14,0x00,0x10,0x00,0x0c,0x00,0x00,0x00,0x00,0x00,0x08,0x00,0x07,0x00,0x16,0x00,0x00,0x00,0x00,0x00,0x00,0x01,0x14,0x00,0x00,0x00,0x20,0x00,0x00,0x00,0x20,0x00,0x00,0x00,0x01,0x00,0x00,0x00,0x3c,0x00,0x00,0x00,0x03,0x00,0x00,0x00,0xff,0xff,0xff,0xff,0x78,0x00,0x00,0x00,0x06,0x00,0x00,0x00,0x84,0xff,0xff,0xff,0x1f,0x00,0x00,0x00,0x73,0x65,0x72,0x76,0x69,0x6e,0x67,0x5f,0x64,0x65,0x66,0x61,0x75,0x6c,0x74,0x5f,0x69,0x6e,0x70,0x75,0x74,0x5f,0x6c,0x61,0x79,0x65,0x72,0x5f,0x32,0x3a,0x30,0x00,0x03,0x00,0x00,0x00,0x01,0x00,0x00,0x00,0x78,0x00,0x00,0x00,0x06,0x00,0x00,0x00,0x07,0x00,0x00,0x00,0x6c,0x00,0x00,0x00,0x50,0x00,0x00,0x00,0x40,0x00,0x00,0x00,0x38,0x00,0x00,0x00,0x24,0x00,0x00,0x00,0x14,0x00,0x00,0x00,0x04,0x00,0x00,0x00,0xbc,0xff,0xff,0xff,0x0e,0x00,0x00,0x00,0x00,0x00,0x00,0x0e,0xc8,0xff,0xff,0xff,0x09,0x00,0x00,0x00,0x00,0x00,0x00,0x09,0xd4,0xff,0xff,0xff,0x11,0x00,0x00,0x00,0x00,0x00,0x00,0x11,0x04,0x00,0x04,0x00,0x04,0x00,0x00,0x00,0xe8,0xff,0xff,0xff,0x16,0x00,0x00,0x00,0x00,0x00,0x00,0x16,0xf4,0xff,0xff,0xff,0x03,0x00,0x00,0x00,0x00,0x00,0x00,0x03,0x0c,0x00,0x0c,0x00,0x0b,0x00,0x00,0x00,0x00,0x00,0x04,0x00,0x0c,0x00,0x00,0x00,0x46,0x00,0x00,0x00,0x00,0x00,0x00,0x46};
